TRT-5105-EntropyCalibration
data: 3caa54fb
resnetv1d_batchnorm0_fwd: 3e78a831
resnetv1d_batchnorm1_fwd: 3e8f6845
resnetv1d_batchnorm2_fwd: 3e80a165
resnetv1d_pool0_fwd: 3e742751
resnetv1d_down1_pool0_fwd: 3e742751
resnetv1d_layers1_batchnorm0_fwd: 3e276594
resnetv1d_layers1_batchnorm1_fwd: 3e322373
resnetv1d_layers1_batchnorm2_fwd: 3e08c6d1
resnetv1d_layers1_bottleneckv1b0__plus0: 3e889505
resnetv1d_layers1_batchnorm3_fwd: 3da2877b
resnetv1d_layers1_batchnorm4_fwd: 3dcffb02
resnetv1d_layers1_bottleneckv1b1__plus0: 3e935c5f
resnetv1d_layers1_batchnorm6_fwd: 3d835c84
resnetv1d_layers1_batchnorm7_fwd: 3dd0790b
resnetv1d_layers1_bottleneckv1b2__plus0: 3e9850a7
resnetv1d_down2_pool0_fwd: 3e695448
resnetv1d_layers2_batchnorm0_fwd: 3e16a26c
resnetv1d_layers2_batchnorm1_fwd: 3dd77fdc
resnetv1d_layers2_batchnorm2_fwd: 3de4d4e4
resnetv1d_layers2_bottleneckv1b0__plus0: 3e142025
resnetv1d_layers2_batchnorm3_fwd: 3d9ddad3
resnetv1d_layers2_batchnorm4_fwd: 3dcb8cea
resnetv1d_layers2_bottleneckv1b1__plus0: 3def9b4d
resnetv1d_layers2_batchnorm6_fwd: 3da4fe5a
resnetv1d_layers2_batchnorm7_fwd: 3d99f20f
resnetv1d_layers2_bottleneckv1b2__plus0: 3e2121e7
resnetv1d_layers2_batchnorm9_fwd: 3dcfc7f4
resnetv1d_layers2_batchnorm10_fwd: 3e11eecf
resnetv1d_layers2_bottleneckv1b3__plus0: 3e48639d
resnetv1d_down3_pool0_fwd: 3df96e75
resnetv1d_layers3_batchnorm0_fwd: 3e069452
resnetv1d_layers3_batchnorm1_fwd: 3d972cdc
resnetv1d_layers3_batchnorm2_fwd: 3d9e6d4d
resnetv1d_layers3_bottleneckv1b0__plus0: 3e143289
resnetv1d_layers3_batchnorm3_fwd: 3e05155b
resnetv1d_layers3_batchnorm4_fwd: 3da9ebe3
resnetv1d_layers3_bottleneckv1b1__plus0: 3e09609f
resnetv1d_layers3_batchnorm6_fwd: 3da64d45
resnetv1d_layers3_batchnorm7_fwd: 3d955e71
resnetv1d_layers3_bottleneckv1b2__plus0: 3e16b933
resnetv1d_layers3_batchnorm9_fwd: 3df1db1f
resnetv1d_layers3_batchnorm10_fwd: 3dc6c762
resnetv1d_layers3_bottleneckv1b3__plus0: 3e0814ce
resnetv1d_layers3_batchnorm12_fwd: 3dbd61be
resnetv1d_layers3_batchnorm13_fwd: 3dac0ded
resnetv1d_layers3_bottleneckv1b4__plus0: 3de88c50
resnetv1d_layers3_batchnorm15_fwd: 3dfe00dd
resnetv1d_layers3_batchnorm16_fwd: 3df438b4
resnetv1d_layers3_bottleneckv1b5__plus0: 3e10c862
resnetv1d_down4_pool0_fwd: 3daff110
resnetv1d_layers4_batchnorm0_fwd: 3dedd9f8
resnetv1d_layers4_batchnorm1_fwd: 3d8d28f9
resnetv1d_layers4_batchnorm2_fwd: 3dc09530
resnetv1d_layers4_bottleneckv1b0__plus0: 3ec11a8b
resnetv1d_layers4_batchnorm3_fwd: 3ddd947e
resnetv1d_layers4_batchnorm4_fwd: 3d78bafe
resnetv1d_layers4_bottleneckv1b1__plus0: 3e9604bf
resnetv1d_layers4_batchnorm6_fwd: 3dcd9f92
resnetv1d_layers4_batchnorm7_fwd: 3d840f27
resnetv1d_layers4_bottleneckv1b2__plus0: 3ebd9656
resnetv1d_pool1_fwd: 3d8dd1b8
resnetv1d_dense0_fwd: 3df2d6b1
